#pragma once
// Auto-generated from model.tflite
const unsigned char dht_anomaly_model_tflite[] = { 32, 0, 0, 0, 84, 70, 76, 51, 0, 0, 0, 0, 20, 0, 32, 0, 28, 0, 24, 0, 20, 0, 16, 0, 12, 0, 0, 0, 8, 0, 4, 0, 20, 0, 0, 0, 28, 0, 0, 0, 120, 0, 0, 0, 208, 0, 0, 0, 4, 2, 0, 0, 20, 2, 0, 0, 24, 7, 0, 0, 3, 0, 0, 0, 1, 0, 0, 0, 4, 0, 0, 0, 178, 253, 255, 255, 12, 0, 0, 0, 28, 0, 0, 0, 52, 0, 0, 0, 15, 0, 0, 0, 115, 101, 114, 118, 105, 110, 103, 95, 100, 101, 102, 97, 117, 108, 116, 0, 1, 0, 0, 0, 4, 0, 0, 0, 164, 255, 255, 255, 7, 0, 0, 0, 4, 0, 0, 0, 3, 0, 0, 0, 111, 117, 116, 0, 1, 0, 0, 0, 4, 0, 0, 0, 122, 254, 255, 255, 4, 0, 0, 0, 2, 0, 0, 0, 105, 110, 0, 0, 2, 0, 0, 0, 52, 0, 0, 0, 4, 0, 0, 0, 220, 255, 255, 255, 10, 0, 0, 0, 4, 0, 0, 0, 19, 0, 0, 0, 67, 79, 78, 86, 69, 82, 83, 73, 79, 78, 95, 77, 69, 84, 65, 68, 65, 84, 65, 0, 8, 0, 12, 0, 8, 0, 4, 0, 8, 0, 0, 0, 9, 0, 0, 0, 4, 0, 0, 0, 19, 0, 0, 0, 109, 105, 110, 95, 114, 117, 110, 116, 105, 109, 101, 95, 118, 101, 114, 115, 105, 111, 110, 0, 11, 0, 0, 0, 48, 1, 0, 0, 40, 1, 0, 0, 20, 1, 0, 0, 244, 0, 0, 0, 196, 0, 0, 0, 164, 0, 0, 0, 156, 0, 0, 0, 148, 0, 0, 0, 140, 0, 0, 0, 108, 0, 0, 0, 4, 0, 0, 0, 22, 255, 255, 255, 4, 0, 0, 0, 88, 0, 0, 0, 12, 0, 0, 0, 8, 0, 14, 0, 8, 0, 4, 0, 8, 0, 0, 0, 16, 0, 0, 0, 40, 0, 0, 0, 0, 0, 6, 0, 8, 0, 4, 0, 6, 0, 0, 0, 4, 0, 0, 0, 1, 0, 0, 0, 235, 3, 0, 0, 0, 0, 10, 0, 16, 0, 12, 0, 8, 0, 4, 0, 10, 0, 0, 0, 2, 0, 0, 0, 2, 0, 0, 0, 4, 0, 0, 0, 6, 0, 0, 0, 50, 46, 49, 51, 46, 48, 0, 0, 122, 255, 255, 255, 4, 0, 0, 0, 16, 0, 0, 0, 49, 46, 49, 52, 46, 48, 0, 0, 0, 0, 0, 0, 0, 0, 0, 0, 216, 254, 255, 255, 220, 254, 255, 255, 224, 254, 255, 255, 162, 255, 255, 255, 4, 0, 0, 0, 16, 0, 0, 0, 27, 31, 194, 55, 54, 170, 8, 254, 127, 92, 19, 34, 4, 2, 185, 43, 190, 255, 255, 255, 4, 0, 0, 0, 32, 0, 0, 0, 254, 12, 0, 0, 254, 252, 255, 255, 233, 252, 255, 255, 27, 254, 255, 255, 171, 251, 255, 255, 117, 12, 0, 0, 115, 253, 255, 255, 16, 253, 255, 255, 234, 255, 255, 255, 4, 0, 0, 0, 8, 0, 0, 0, 144, 102, 96, 0, 127, 189, 249, 78, 0, 0, 6, 0, 8, 0, 4, 0, 6, 0, 0, 0, 4, 0, 0, 0, 4, 0, 0, 0, 235, 250, 255, 255, 88, 255, 255, 255, 92, 255, 255, 255, 15, 0, 0, 0, 77, 76, 73, 82, 32, 67, 111, 110, 118, 101, 114, 116, 101, 100, 46, 0, 1, 0, 0, 0, 20, 0, 0, 0, 0, 0, 14, 0, 24, 0, 20, 0, 16, 0, 12, 0, 8, 0, 4, 0, 14, 0, 0, 0, 20, 0, 0, 0, 28, 0, 0, 0, 212, 0, 0, 0, 216, 0, 0, 0, 220, 0, 0, 0, 4, 0, 0, 0, 109, 97, 105, 110, 0, 0, 0, 0, 3, 0, 0, 0, 124, 0, 0, 0, 52, 0, 0, 0, 16, 0, 0, 0, 0, 0, 10, 0, 16, 0, 12, 0, 8, 0, 4, 0, 10, 0, 0, 0, 12, 0, 0, 0, 16, 0, 0, 0, 1, 0, 0, 0, 1, 0, 0, 0, 7, 0, 0, 0, 1, 0, 0, 0, 6, 0, 0, 0, 202, 255, 255, 255, 20, 0, 0, 0, 0, 0, 0, 8, 16, 0, 0, 0, 20, 0, 0, 0, 4, 0, 4, 0, 4, 0, 0, 0, 1, 0, 0, 0, 6, 0, 0, 0, 3, 0, 0, 0, 5, 0, 0, 0, 2, 0, 0, 0, 1, 0, 0, 0, 0, 0, 14, 0, 22, 0, 0, 0, 16, 0, 12, 0, 11, 0, 4, 0, 14, 0, 0, 0, 24, 0, 0, 0, 0, 0, 0, 8, 24, 0, 0, 0, 28, 0, 0, 0, 0, 0, 6, 0, 8, 0, 7, 0, 6, 0, 0, 0, 0, 0, 0, 1, 1, 0, 0, 0, 5, 0, 0, 0, 3, 0, 0, 0, 0, 0, 0, 0, 4, 0, 0, 0, 3, 0, 0, 0, 1, 0, 0, 0, 7, 0, 0, 0, 1, 0, 0, 0, 0, 0, 0, 0, 8, 0, 0, 0, 124, 3, 0, 0, 244, 2, 0, 0, 120, 2, 0, 0, 4, 2, 0, 0, 160, 1, 0, 0, 4, 1, 0, 0, 128, 0, 0, 0, 4, 0, 0, 0, 186, 252, 255, 255, 0, 0, 0, 1, 24, 0, 0, 0, 32, 0, 0, 0, 60, 0, 0, 0, 8, 0, 0, 0, 0, 0, 0, 9, 80, 0, 0, 0, 2, 0, 0, 0, 255, 255, 255, 255, 1, 0, 0, 0, 164, 252, 255, 255, 8, 0, 0, 0, 16, 0, 0, 0, 1, 0, 0, 0, 128, 255, 255, 255, 255, 255, 255, 255, 1, 0, 0, 0, 0, 0, 128, 59, 25, 0, 0, 0, 83, 116, 97, 116, 101, 102, 117, 108, 80, 97, 114, 116, 105, 116, 105, 111, 110, 101, 100, 67, 97, 108, 108, 58, 48, 0, 0, 0, 2, 0, 0, 0, 1, 0, 0, 0, 1, 0, 0, 0, 50, 253, 255, 255, 0, 0, 0, 1, 24, 0, 0, 0, 32, 0, 0, 0, 60, 0, 0, 0, 7, 0, 0, 0, 0, 0, 0, 9, 88, 0, 0, 0, 2, 0, 0, 0, 255, 255, 255, 255, 1, 0, 0, 0, 28, 253, 255, 255, 8, 0, 0, 0, 16, 0, 0, 0, 1, 0, 0, 0, 221, 255, 255, 255, 255, 255, 255, 255, 1, 0, 0, 0, 250, 233, 154, 61, 34, 0, 0, 0, 109, 111, 100, 101, 108, 47, 111, 117, 116, 47, 77, 97, 116, 77, 117, 108, 59, 109, 111, 100, 101, 108, 47, 111, 117, 116, 47, 66, 105, 97, 115, 65, 100, 100, 0, 0, 2, 0, 0, 0, 1, 0, 0, 0, 1, 0, 0, 0, 178, 253, 255, 255, 0, 0, 0, 1, 24, 0, 0, 0, 32, 0, 0, 0, 64, 0, 0, 0, 6, 0, 0, 0, 0, 0, 0, 9, 112, 0, 0, 0, 2, 0, 0, 0, 255, 255, 255, 255, 8, 0, 0, 0, 156, 253, 255, 255, 8, 0, 0, 0, 20, 0, 0, 0, 1, 0, 0, 0, 128, 255, 255, 255, 255, 255, 255, 255, 0, 0, 0, 0, 1, 0, 0, 0, 68, 156, 250, 60, 55, 0, 0, 0, 109, 111, 100, 101, 108, 47, 100, 101, 110, 115, 101, 47, 77, 97, 116, 77, 117, 108, 59, 109, 111, 100, 101, 108, 47, 100, 101, 110, 115, 101, 47, 82, 101, 108, 117, 59, 109, 111, 100, 101, 108, 47, 100, 101, 110, 115, 101, 47, 66, 105, 97, 115, 65, 100, 100, 0, 2, 0, 0, 0, 1, 0, 0, 0, 8, 0, 0, 0, 206, 254, 255, 255, 0, 0, 0, 1, 20, 0, 0, 0, 48, 0, 0, 0, 5, 0, 0, 0, 0, 0, 0, 9, 60, 0, 0, 0, 36, 254, 255, 255, 8, 0, 0, 0, 16, 0, 0, 0, 1, 0, 0, 0, 0, 0, 0, 0, 0, 0, 0, 0, 1, 0, 0, 0, 193, 141, 194, 60, 18, 0, 0, 0, 109, 111, 100, 101, 108, 47, 100, 101, 110, 115, 101, 47, 77, 97, 116, 77, 117, 108, 0, 0, 2, 0, 0, 0, 8, 0, 0, 0, 2, 0, 0, 0, 46, 255, 255, 255, 0, 0, 0, 1, 20, 0, 0, 0, 52, 0, 0, 0, 4, 0, 0, 0, 0, 0, 0, 2, 80, 0, 0, 0, 132, 254, 255, 255, 8, 0, 0, 0, 20, 0, 0, 0, 1, 0, 0, 0, 0, 0, 0, 0, 0, 0, 0, 0, 0, 0, 0, 0, 1, 0, 0, 0, 146, 58, 247, 57, 34, 0, 0, 0, 109, 111, 100, 101, 108, 47, 100, 101, 110, 115, 101, 47, 66, 105, 97, 115, 65, 100, 100, 47, 82, 101, 97, 100, 86, 97, 114, 105, 97, 98, 108, 101, 79, 112, 0, 0, 1, 0, 0, 0, 8, 0, 0, 0, 158, 255, 255, 255, 0, 0, 0, 1, 20, 0, 0, 0, 48, 0, 0, 0, 3, 0, 0, 0, 0, 0, 0, 9, 60, 0, 0, 0, 244, 254, 255, 255, 8, 0, 0, 0, 16, 0, 0, 0, 1, 0, 0, 0, 0, 0, 0, 0, 0, 0, 0, 0, 1, 0, 0, 0, 130, 167, 166, 60, 16, 0, 0, 0, 109, 111, 100, 101, 108, 47, 111, 117, 116, 47, 77, 97, 116, 77, 117, 108, 0, 0, 0, 0, 2, 0, 0, 0, 1, 0, 0, 0, 8, 0, 0, 0, 0, 0, 22, 0, 28, 0, 24, 0, 23, 0, 16, 0, 12, 0, 8, 0, 0, 0, 0, 0, 0, 0, 7, 0, 22, 0, 0, 0, 0, 0, 0, 1, 20, 0, 0, 0, 48, 0, 0, 0, 2, 0, 0, 0, 0, 0, 0, 2, 76, 0, 0, 0, 108, 255, 255, 255, 8, 0, 0, 0, 16, 0, 0, 0, 1, 0, 0, 0, 0, 0, 0, 0, 0, 0, 0, 0, 1, 0, 0, 0, 79, 37, 35, 58, 32, 0, 0, 0, 109, 111, 100, 101, 108, 47, 111, 117, 116, 47, 66, 105, 97, 115, 65, 100, 100, 47, 82, 101, 97, 100, 86, 97, 114, 105, 97, 98, 108, 101, 79, 112, 0, 0, 0, 0, 1, 0, 0, 0, 1, 0, 0, 0, 0, 0, 22, 0, 32, 0, 28, 0, 27, 0, 20, 0, 16, 0, 12, 0, 0, 0, 0, 0, 8, 0, 7, 0, 22, 0, 0, 0, 0, 0, 0, 1, 24, 0, 0, 0, 44, 0, 0, 0, 72, 0, 0, 0, 1, 0, 0, 0, 0, 0, 0, 9, 88, 0, 0, 0, 2, 0, 0, 0, 255, 255, 255, 255, 2, 0, 0, 0, 12, 0, 12, 0, 0, 0, 0, 0, 8, 0, 4, 0, 12, 0, 0, 0, 8, 0, 0, 0, 16, 0, 0, 0, 1, 0, 0, 0, 0, 0, 0, 0, 0, 0, 0, 0, 1, 0, 0, 0, 224, 167, 162, 60, 20, 0, 0, 0, 115, 101, 114, 118, 105, 110, 103, 95, 100, 101, 102, 97, 117, 108, 116, 95, 105, 110, 58, 48, 0, 0, 0, 0, 2, 0, 0, 0, 1, 0, 0, 0, 2, 0, 0, 0, 2, 0, 0, 0, 36, 0, 0, 0, 4, 0, 0, 0, 240, 255, 255, 255, 14, 0, 0, 0, 2, 0, 0, 0, 0, 0, 0, 14, 12, 0, 16, 0, 15, 0, 0, 0, 8, 0, 4, 0, 12, 0, 0, 0, 9, 0, 0, 0, 4, 0, 0, 0, 0, 0, 0, 9 };
const int dht_anomaly_model_tflite_len = 1928;
